00000000000000000000000000000000
00000000000000000000000000000000
00000000000000000000000000000000
00000000000000000000000000000000
00000000000000000000000000000000
00000000000000000000000000000000
00000000000000000000000000000000
00000000000000000000000000000000
00000000000000000000000000000000
00000000000000000000000000000000
00000000000000000000000000000000
00111111111111111111111111100000
00111111111111111111111111111110
00111111111111111111111111111111
00111111000000000000000001111111
00111111000000000000000000000111
00111111000000000000000000000111
00111111000000000000000000000111
00111111000000000000000000000111
00111111000000000000000000011111
00111111000000000000000001111111
00111111111111111111111111111110
00111111111111111111111111111111
00111111000000000000000000011111
00111111000000000000000000000111
00111111000000000000000000000111
00111111000000000000000000000111
00111111000000000000000001111111
00111111111111111111111111111111
00111111111111111111111111111110
00111111111111111111111111100000
00000000000000000000000000000000
