00000000000000000000000000000000
00000000000000000000000000000000
00001111111111111111111111111000
00001111111111111111111111111111
00001111111111111111111111111111
00001111111111111111111111111111
00001111111110000000000111111111
00001111111110000000000000111111
00001111111110000000000000111111
00001111111110000000000000111111
00001111111110000000000000111111
00001111111110000000000111111111
00001111111111111111111111111111
00001111111111111111111111111111
00001111111111111111111111111111
00001111111111111111111111111111
00001111111110000000000111111111
00001111111110000000000111111111
00001111111110000000000000111111
00001111111110000000000000111111
00001111111110000000000000111111
00001111111110000000000000111111
00001111111110000000000111111111
00001111111111111111111111111111
00001111111111111111111111111111
00001111111111111111111111111111
00001111111111111111111111111000
00001111111111111111111111111000
00000000000000000000000000000000
00000000000000000000000000000000
00000000000000000000000000000000
00000000000000000000000000000000
