00011111111111111111111111100000
00011111111111111111111111100000
00011111111111111111111111111100
00011111111111111111111111111111
00011111111111111111111111111111
00011111111111000000001111111111
00011111111111000000000011111111
00011111111111000000000011111111
00011111111111000000000011111111
00011111111111000000001111111111
00011111111111111111111111111111
00011111111111111111111111111111
00011111111111111111111111111111
00011111111111111111111111111111
00011111111111000000001111111111
00011111111111000000000011111111
00011111111111000000000011111111
00011111111111000000000011111111
00011111111111000000000011111111
00011111111111000000001111111111
00011111111111111111111111111111
00011111111111111111111111111111
00011111111111111111111111111100
00011111111111111111111111100000
00000000000000000000000000000000
00000000000000000000000000000000
00000000000000000000000000000000
00000000000000000000000000000000
00000000000000000000000000000000
00000000000000000000000000000000
00000000000000000000000000000000
00000000000000000000000000000000
