00000000000000000000000000000000
00000000000000000000000000000000
00000000000000000000000000000000
00000000000000000000000000000000
00000000000000000000000000000000
00000000000000000000000000000000
00011111111000001111110000000011
00011111111000001111110000000011
00011111111000001111110000000011
00011111111000001111110000000011
00011111111000001111110000000011
00011111111000001111110000000011
00011111111000001111110000000011
00011111111000001111110000000011
00011111111000001111110000000011
00011111111000001111110000000011
00000011111000111111111100011111
00000011111000111111111100011111
00000011111111111110001111111111
00000000111111111110001111111111
00000000000111110000001111111100
00000000000000000000000000000000
00000000000000000000000000000000
00000000000000000000000000000000
00000000000000000000000000000000
00000000000000000000000000000000
00000000000000000000000000000000
00000000000000000000000000000000
00000000000000000000000000000000
00000000000000000000000000000000
00000000000000000000000000000000
00000000000000000000000000000000
