00000000000000000000000000000000
00000000000000000000000000000000
00000000000000000000000000000000
00000000000000000000000000000000
00000000000000000000000000000000
00000000000000000000000000000000
00000000000000000000000000000000
00000000000000000000000000000000
00000000000000000000000000000000
00000000000000000000000000000000
00011111100000011111110000001111
00011111100000011111110000001111
00011111100000011111110000001111
00011111100000011111110000001111
00011111100000011111110000001111
00011111100000011111110000001111
00011111100000011111110000001111
00011111100000011111110000001111
00011111100000011111110000001111
00011111100000011111110000001111
00011111100000011111110000001111
00011111100000011111110000001111
00011111100000011111110000001111
00011111100000011111110000001111
00000111111001111111111100111111
00000111111111111100111111111111
00000001111111111100001111111100
00000000011111100000001111110000
00000000000000000000000000000000
00000000000000000000000000000000
00000000000000000000000000000000
00000000000000000000000000000000
