00000000000000000000000000000000
00000000000000000000000000000000
00000000000000000000000000000000
00000000000000000000000000000000
00000000000000000000000000000000
00000000000000000000000000000000
00000000000000000000000000000000
00000000000000000000000000000000
00000000000000000000000000000000
00000000000000000000000000000000
00011111110000001111100000001111
00011111110000001111100000001111
00011111110000001111100000001111
00011111110000001111100000001111
00011111110000001111100000001111
00011111110000001111100000001111
00011111110000001111100000001111
00011111110000001111100000001111
00011111110000001111100000001111
00011111110000001111100000001111
00011111110000001111100000001111
00000111111100111111111000111111
00000111111111111110011111111111
00000001111111111110011111111100
00000000001111110000011111110000
00000000000000000000000000000000
00000000000000000000000000000000
00000000000000000000000000000000
00000000000000000000000000000000
00000000000000000000000000000000
00000000000000000000000000000000
00000000000000000000000000000000
