00000000000000000000000000000000
00000000000000000000000000000000
00000000000000000000000000000000
00000000000000000000000000000000
00000000000000000000000000000000
00000000000000000000000000000000
00000000000000000000000000000000
00000000000000000000000000000000
00000000000000000000000000000000
00111111000000111111110000001111
00111111000000111111110000001111
00111111000000111111110000001111
00111111000000111111110000001111
00111111000000111111110000001111
00111111000000111111110000001111
00111111000000111111110000001111
00111111000000111111110000001111
00111111000000111111110000001111
00111111000000111111110000001111
00111111000000111111110000001111
00001111110011111111111100111111
00001111111111110000111111111111
00000011111111110000001111111100
00000000111111000000001111110000
00000000000000000000000000000000
00000000000000000000000000000000
00000000000000000000000000000000
00000000000000000000000000000000
00000000000000000000000000000000
00000000000000000000000000000000
00000000000000000000000000000000
00000000000000000000000000000000
